TRT-8003-MinMaxCalibration
images: 3c010204
367: 3c010204
372: 3c010204
377: 3c010204
382: 3c010204
387: 3c010204
392: 3c010204
397: 3c010204
402: 3c010204
403: 3c010204
748: 3f361b78
406: 3c010204
407: 3f361b78
751: 3f449e1b
410: 3c010204
411: 3f17cbe9
754: 3ebbaf2d
414: 3c0100e4
415: 3da5fef2
757: 3e2de501
418: 3c0101e3
419: 3dc8edba
760: 3e21c489
422: 3c010204
423: 3e054fe8
424: 3e8de2f4
763: 3ed19f03
427: 3c010204
428: 3e8de2f4
429: 3e8de2f4
766: 3e94434f
432: 3c0101f5
433: 3dd51658
769: 3dadc6da
436: 3c00e9ae
437: 3d68706e
772: 3d367ea1
440: 3bf35cc2
441: 3caaf525
775: 3da072f6
444: 3c00f642
445: 3d7ffbc5
778: 3d4935b0
448: 3bff1865
449: 3d0e879f
450: 3d09b771
781: 3d837abd
453: 3c00da22
454: 3d586758
784: 3d6689ad
457: 3c00cf16
458: 3d50722d
459: 3d6f297b
787: 3dba4d5d
462: 3c00eb24
463: 3d6a7347
790: 3e02bd60
466: 3c00ff4a
467: 3d97a145
468: 3dae8328
793: 3d9c56a5
471: 3c00fed8
472: 3dae8328
473: 3dae8328
796: 3d8ab732
476: 3c00fb9f
477: 3d89cd92
799: 3d97ae44
480: 3c00f679
481: 3d804b1c
802: 3d8045fc
484: 3bf9776c
485: 3cd26472
805: 3dc1bad2
488: 3c0101d1
489: 3dc1ba85
808: 3d3f6d96
492: 3c008e65
493: 3d359f8f
494: 3d3e4751
811: 3d9ad8dc
497: 3c00ffcc
498: 3d9ad631
814: 3d98784c
501: 3c00ff6e
502: 3d98753d
503: 3d9c8cae
817: 3dab25d6
506: 3c010135
507: 3dab24c3
820: 3dbd6d3e
510: 3c0101c2
511: 3dbd6cdd
512: 3dfb037b
823: 3ddb2178
515: 3c0101fa
516: 3dfb037b
517: 3dfb037b
826: 3da63ff2
520: 3c0100e9
521: 3dbdabaf
829: 3dbc2206
524: 3c01017e
525: 3db23c73
832: 3dab857c
528: 3c01013a
529: 3dab846f
530: 3dab846f
531: 3dab846f
532: 3dab846f
533: 3dab846f
835: 3d95eb69
536: 3c00f77c
537: 3d81c5dc
838: 3de38ea7
540: 3c0101fe
541: 3de38e9c
841: 3dc69416
544: 3c0101de
545: 3dc693dc
844: 3da9970f
548: 3c00ff92
549: 3d9f5645
847: 3d9f5858
552: 3c010056
553: 3d9f5645
554: 3d9f5645
850: 3dc2867f
557: 3c0101b9
558: 3dbba4a4
853: 3dbdac10
561: 3c0101c3
562: 3dbdabaf
567: 3dbdabaf
568: 3dbdabaf
856: 3d6b7869
571: 3c00e911
572: 3d67a13f
859: 3daf24b3
575: 3c010163
576: 3daf23d9
862: 3d8c3cd7
579: 3c00f8d5
580: 3d840d53
865: 3d765010
583: 3c00d144
584: 3d840d53
585: 3d840d53
868: 3dd909eb
588: 3c01016a
589: 3dafdf7b
871: 3d77bcd1
592: 3c00f2ca
593: 3d94d044
598: 3d89cd92
599: 3d89cd92
874: 3d4b08e8
602: 3bf03cd5
603: 3c9c602a
877: 3d39d55b
606: 3bfe281e
607: 3d050892
880: 3df05def
610: 3c01014b
611: 3dacd8b2
883: 3d51ffbc
614: 3c00d0fd
615: 3dacd8b2
616: 3dacd8b2
886: 3e62cce9
619: 3c010204
620: 3e4af775
889: 3d94d404
623: 3c00fec3
624: 3d94d044
625: 3d94d044
892: 3d8ff95e
628: 3c00fda3
629: 3d8ff47b
895: 3d959c61
632: 3c00fa9b
633: 3d877d52
898: 3e11c51e
636: 3c010181
637: 3db2aa70
901: 3d9c4fd3
640: 3c00f8a7
641: 3db2aa70
642: 3db2aa70
904: 3e814149
645: 3c010204
646: 3e45b1b4
907: 3daf12be
649: 3c010163
650: 3dbdabaf
651: 3dbdabaf
910: 3db523f4
654: 3c00fedc
655: 3d954e22
913: 3dc95673
658: 3c00ff4c
659: 3d97abce
916: 3dfd714b
662: 3c0101d5
663: 3dc31346
919: 3d9f2f4c
666: 3c00ea72
667: 3dc31346
668: 3dc31346
922: 3e42cbcc
671: 3c010204
672: 3e1f676a
673: 3e352292
696: 3e352292
output_0: 3e352292
698: 3e0ddff2
721: 3e0ddff2
output_1: 3e0ddff2
723: 3e092b70
746: 3e092b70
output_2: 3e092b70
